<unk>	0
<s>	0
</s>	0
an	-0
▁k	-1
▁n	-2
wa	-3
▁m	-4
en	-5
▁ku	-6
ar	-7
▁s	-8
▁y	-9
tu	-10
in	-11
▁h	-12
la	-13
ana	-14
▁na	-15
▁ni	-16
ia	-17
▁I	-18
▁w	-19
om	-20
er	-21
am	-22
▁kwa	-23
to	-24
te	-25
za	-26
any	-27
un	-28
▁wa	-29
le	-30
zi	-31
ab	-32
on	-33
op	-34
":	-35
"}	-36
xt	-37
{"	-38
▁"	-39
▁{"	-40
text	-41
th	-42
da	-43
."}	-44
sh	-45
ik	-46
▁T	-47
ou	-48
gu	-49
or	-50
ini	-51
ome	-52
ork	-53
fany	-54
▁you	-55
▁f	-56
▁D	-57
▁p	-58
▁M	-59
▁ki	-60
▁b	-61
▁my	-62
ent	-63
ari	-64
▁e	-65
▁S	-66
al	-67
▁c	-68
ala	-69
ka	-70
and	-71
fanya	-72
▁ya	-73
li	-74
▁Sala	-75
et	-76
▁v	-77
ine	-78
eop	-79
eople	-80
ungu	-81
ua	-82
▁and	-83
▁to	-84
anz	-85
ania	-86
▁Tanz	-87
▁Tanzania	-88
▁es	-89
▁Dar	-90
▁Salaam	-91
▁home	-92
▁J	-93
ce	-94
us	-95
azi	-96
▁kazi	-97
▁i	-98
▁work	-99
mia	-100
tumia	-101
of	-102
▁of	-103
▁W	-104
▁people	-105
ri	-106
mza	-107
▁kuz	-108
ungumza	-109
▁kuzungumza	-110
enda	-111
ko	-112
Hab	-113
Habari	-114
jua	-115
▁kutumia	-116
toka	-117
▁kutoka	-118
▁tu	-119
na	-120
▁was	-121
mu	-122
oma	-123
Le	-124
me	-125
Leo	-126
work	-127
▁Leo	-128
▁niko	-129
▁nime	-130
▁homework	-131
▁nimefanya	-132
day	-133
oday	-134
▁met	-135
▁went	-136
ane	-137
hen	-138
inish	-139
onane	-140
▁come	-141
▁finish	-142
▁tuonane	-143
Una	-144
anap	-145
angu	-146
▁anap	-147
▁sana	-148
Unajua	-149
▁yangu	-150
▁anapenda	-151
aw	-152
▁z	-153
all	-154
are	-155
enu	-156
ery	-157
iku	-158
ona	-159
ope	-160
▁It	-161
liku	-162
▁all	-163
▁are	-164
▁nao	-165
▁saw	-166
▁Jana	-167
▁fine	-168
▁hope	-169
▁kila	-170
▁kona	-171
▁many	-172
▁nice	-173
▁very	-174
▁zenu	-175
likuwa	-176
▁nilikuwa	-177
wali	-178
af	-179
as	-180
fun	-181
ai	-182
iki	-183
ith	-184
▁with	-185
ch	-186
▁Habari	-187
▁so	-188
▁kij	-189
amb	-190
sha	-191
ge	-192
▁ho	-193
▁sh	-194
▁Unajua	-195
▁When	-196
it	-197
▁Today	-198
▁K	-199
▁bu	-200
▁r	-201
▁th	-202
▁P	-203
ambo	-204
ara	-205
abia	-206
shara	-207
fanyabia	-208
fanyabiashara	-209
zazi	-210
walimu	-211
ya	-212
ee	-213
zee	-214
kt	-215
ktari	-216
wana	-217
funzi	-218
wanafunzi	-219
afiki	-220
ij	-221
end	-222
▁Do	-223
we	-224
hi	-225
▁watu	-226
el	-227
mb	-228
umb	-229
▁ny	-230
ani	-231
▁A	-232
amo	-233
▁kus	-234
▁kufanya	-235
abu	-236
▁sab	-237
▁sababu	-238
iv	-239
▁u	-240
ea	-241
do	-242
▁do	-243
atu	-244
▁vi	-245
tud	-246
tudent	-247
cher	-248
ers	-249
erson	-250
riend	-251
sm	-252
ssm	-253
ssman	-254
usine	-255
usinessman	-256
arent	-257
ld	-258
lder	-259
cto	-260
ctor	-261
ika	-262
▁but	-263
▁if	-264
ver	-265
wever	-266
▁however	-267
hile	-268
▁while	-269
▁mzazi	-270
▁mwalimu	-271
▁mtu	-272
ca	-273
eca	-274
use	-275
▁beca	-276
▁because	-277
▁then	-278
▁mfanyabiashara	-279
geth	-280
gether	-281
▁together	-282
▁rafiki	-283
▁mwanafunzi	-284
▁mzee	-285
▁da	-286
▁daktari	-287
▁kijana	-288
▁t	-289
umbani	-290
▁nyumbani	-291
at	-292
kon	-293
koni	-294
▁sokoni	-295
ule	-296
▁shule	-297
is	-298
isini	-299
▁ofisini	-300
wan	-301
wanza	-302
▁Mwanza	-303
ijini	-304
▁kijijini	-305
asa	-306
omb	-307
▁Momb	-308
▁Mombasa	-309
ru	-310
▁Aru	-311
▁Arusha	-312
doma	-313
▁Dodoma	-314
si	-315
▁us	-316
ti	-317
kati	-318
▁wakati	-319
lak	-320
▁lak	-321
▁lakini	-322
enya	-323
▁Kenya	-324
bi	-325
ro	-326
▁N	-327
airo	-328
airobi	-329
▁Nairobi	-330
yo	-331
ivyo	-332
▁hivyo	-333
ama	-334
▁kama	-335
▁za	-336
ja	-337
amoja	-338
▁pamoja	-339
zu	-340
zuri	-341
▁ila	-342
▁ma	-343
asi	-344
▁basi	-345
ry	-346
oun	-347
try	-348
▁coun	-349
▁country	-350
ity	-351
▁city	-352
ark	-353
arket	-354
▁market	-355
lla	-356
llage	-357
▁village	-358
fi	-359
fice	-360
▁office	-361
▁shop	-362
ol	-363
cho	-364
chool	-365
▁school	-366
sp	-367
ital	-368
▁hosp	-369
▁hospital	-370
▁kuf	-371
▁kusoma	-372
ria	-373
ji	-374
▁kw	-375
▁E	-376
▁buy	-377
rite	-378
▁write	-379
arn	-380
▁le	-381
▁learn	-382
alk	-383
▁talk	-384
ead	-385
▁read	-386
go	-387
▁go	-388
elp	-389
▁help	-390
ell	-391
▁sell	-392
ink	-393
▁think	-394
▁eat	-395
jambo	-396
ila	-397
tan	-398
▁usi	-399
bu	-400
ibu	-401
▁mai	-402
Swali	-403
▁Jibu	-404
▁maisha	-405
▁uj	-406
fungu	-407
▁hatu	-408
ele	-409
▁kup	-410
▁wali	-411
ijana	-412
eacher	-413
Friend	-414
aktari	-415
▁student	-416
You	-417
Youth	-418
▁businessman	-419
▁youth	-420
▁person	-421
tea	-422
▁tea	-423
▁teacher	-424
▁friend	-425
Businessman	-426
▁parent	-427
▁elder	-428
Rafiki	-429
▁doctor	-430
▁H	-431
Today	-432
When	-433
?"}	-434
andika	-435
▁kuandika	-436
ikiria	-437
▁kufikiria	-438
aid	-439
aidia	-440
▁kusaidia	-441
funza	-442
▁kuji	-443
▁kujifunza	-444
uza	-445
▁kuuza	-446
▁kwenda	-447
nun	-448
nunua	-449
▁kununua	-450
▁kula	-451
▁Mfanyabiashara	-452
▁Watu	-453
▁Kijana	-454
▁Mzazi	-455
▁Teacher	-456
▁Student	-457
▁Mzee	-458
▁Friend	-459
▁Person	-460
▁Daktari	-461
▁Mtu	-462
▁Businessman	-463
▁Mwalimu	-464
▁Mwanafunzi	-465
▁Parent	-466
▁Youth	-467
▁People	-468
▁Elder	-469
▁Rafiki	-470
▁Doctor	-471
ujambo	-472
hik	-473
amoo	-474
hikamoo	-475
amjambo	-476
ah	-477
au	-478
hy	-479
mp	-480
ur	-481
eal	-482
fya	-483
uhi	-484
▁af	-485
▁au	-486
▁is	-487
ahia	-488
mpor	-489
tant	-490
wezi	-491
▁Why	-492
ealth	-493
uhimu	-494
▁Afya	-495
▁afya	-496
▁bila	-497
urahia	-498
▁impor	-499
▁health	-500
▁muhimu	-501
▁hatuwezi	-502
▁important	-503
▁kufurahia	-504
fa	-505
ma	-506
▁U	-507
Jin	-508
bin	-509
eti	-510
owa	-511
toe	-512
▁in	-513
▁ta	-514
afsi	-515
umbe	-516
wila	-517
▁Usi	-518
Jinsi	-519
alama	-520
arifa	-521
▁zako	-522
fungue	-523
owajua	-524
taneti	-525
▁kibin	-526
▁nzuri	-527
▁tumia	-528
▁Usitoe	-529
▁nywila	-530
▁ujumbe	-531
▁taarifa	-532
▁usalama	-533
▁intaneti	-534
▁kibinafsi	-535
▁usifungue	-536
▁usiowajua	-537
ata	-538
nas	-539
uzi	-540
eleo	-541
limu	-542
unas	-543
▁Kwa	-544
▁ili	-545
elewa	-546
▁kuwa	-547
▁nini	-548
funguo	-549
nasoma	-550
▁Elimu	-551
▁Tunas	-552
▁maend	-553
▁mambo	-554
▁ujuzi	-555
▁kupata	-556
▁mazuri	-557
▁kuelewa	-558
▁ufunguo	-559
▁Tunasoma	-560
▁tunasoma	-561
▁maendeleo	-562
1.	-563
2.	-564
3.	-565
4.	-566
Ch	-567
ad	-568
fu	-569
ye	-570
▁O	-571
Ele	-572
adi	-573
eka	-574
ive	-575
oto	-576
ufu	-577
▁1.	-578
▁2.	-579
▁3.	-580
▁4.	-581
▁Ch	-582
enye	-583
tani	-584
Eleza	-585
ambua	-586
▁Osha	-587
▁Pika	-588
▁Weka	-589
▁hadi	-590
▁maji	-591
▁moto	-592
▁sufu	-593
▁uive	-594
▁hatua	-595
▁kupika	-596
▁kwenye	-597
▁vizuri	-598
▁Chambua	-599
▁sufuria	-600
▁wastani	-601
▁Hujambo	-602
▁Shikamoo	-603
▁Jambo	-604
▁Salamu	-605
▁Hamjambo	-606
▁Mambo	-607
Kijana	-608
Mzazi	-609
Mfanyabiashara	-610
Watu	-611
Teacher	-612
Mzee	-613
Daktari	-614
Student	-615
Person	-616
Mwalimu	-617
Mwanafunzi	-618
People	-619
Elder	-620
Mtu	-621
Parent	-622
Do	-623
Doctor	-624
Hamjambo	-625
Sala	-626
Salamu	-627
Hujambo	-628
Jambo	-629
Mambo	-630
Shikamoo	-631
."	-632
?"	-633
Af	-634
Ar	-635
Bu	-636
Da	-637
El	-638
Fr	-639
Ha	-640
Hu	-641
It	-642
Ja	-643
Ji	-644
Ke	-645
Ki	-646
Kw	-647
Ma	-648
Mf	-649
Mo	-650
Mt	-651
Mw	-652
Mz	-653
Na	-654
Os	-655
Pa	-656
Pe	-657
Pi	-658
Ra	-659
Sa	-660
Sh	-661
St	-662
Sw	-663
Ta	-664
Te	-665
To	-666
Tu	-667
Un	-668
Us	-669
Wa	-670
We	-671
Wh	-672
Yo	-673
aa	-674
ac	-675
ae	-676
ag	-677
aj	-678
ak	-679
ao	-680
ap	-681
ay	-682
az	-683
ba	-684
be	-685
bo	-686
ci	-687
co	-688
ct	-689
de	-690
di	-691
ec	-692
ef	-693
ek	-694
eo	-695
es	-696
ev	-697
ew	-698
ex	-699
ez	-700
ff	-701
fr	-702
fs	-703
fy	-704
ha	-705
he	-706
ho	-707
hu	-708
ib	-709
ic	-710
id	-711
ie	-712
if	-713
il	-714
im	-715
io	-716
ir	-717
iz	-718
ju	-719
ke	-720
ki	-721
ku	-722
kw	-723
lk	-724
ll	-725
lp	-726
lt	-727
mf	-728
mi	-729
mj	-730
mo	-731
mt	-732
mw	-733
my	-734
mz	-735
nd	-736
ne	-737
ng	-738
ni	-739
nk	-740
ns	-741
nt	-742
nu	-743
ny	-744
nz	-745
ob	-746
oc	-747
od	-748
oe	-749
og	-750
oj	-751
ok	-752
oo	-753
os	-754
ot	-755
ow	-756
pa	-757
pe	-758
pi	-759
pl	-760
po	-761
ra	-762
re	-763
rk	-764
rn	-765
rs	-766
rt	-767
sa	-768
sc	-769
se	-770
so	-771
ss	-772
st	-773
su	-774
ta	-775
tr	-776
ty	-777
ud	-778
ue	-779
uf	-780
uh	-781
ui	-782
uj	-783
ul	-784
um	-785
uo	-786
up	-787
ut	-788
uu	-789
uw	-790
uy	-791
uz	-792
ve	-793
vi	-794
vy	-795
wh	-796
wi	-797
wo	-798
wr	-799
yu	-800
yw	-801
ze	-802
▁1	-803
▁2	-804
▁3	-805
▁4	-806
▁B	-807
▁C	-808
▁F	-809
▁L	-810
▁R	-811
▁Y	-812
▁a	-813
▁d	-814
▁g	-815
▁l	-816
▁o	-817
▁{	-818
Bus	-819
Dar	-820
Eld	-821
Eli	-822
Fri	-823
Ham	-824
Jam	-825
Jan	-826
Ken	-827
Kij	-828
Kwa	-829
Mam	-830
Mom	-831
Mwa	-832
Mza	-833
Nai	-834
Osh	-835
Par	-836
Per	-837
Pik	-838
Raf	-839
Stu	-840
Swa	-841
Tan	-842
Tea	-843
Tun	-844
Usi	-845
aar	-846
aba	-847
ach	-848
aen	-849
afs	-850
afy	-851
air	-852
akt	-853
amj	-854
ang	-855
ant	-856
aus	-857
azu	-858
ban	-859
bar	-860
bas	-861
bia	-862
bua	-863
com	-864
dak	-865
den	-866
der	-867
dia	-868
dik	-869
doc	-870
dom	-871
ear	-872
eny	-873
eth	-874
ewa	-875
eza	-876
ezi	-877
fan	-878
fik	-879
fin	-880
gue	-881
gum	-882
guo	-883
ham	-884
har	-885
her	-886
hia	-887
hin	-888
hop	-889
ias	-890
ice	-891
ien	-892
ile	-893
ili	-894
imu	-895
ina	-896
ins	-897
int	-898
ish	-899
ite	-900
ito	-901
ivy	-902
jam	-903
jan	-904
jin	-905
kam	-906
kat	-907
ket	-908
kin	-909
laa	-910
lag	-911
lam	-912
leo	-913
lik	-914
lim	-915
lth	-916
man	-917
mbe	-918
mwa	-919
nan	-920
nza	-921
obi	-922
oda	-923
off	-924
ofi	-925
oni	-926
ool	-927
ort	-928
pam	-929
par	-930
pat	-931
pen	-932
per	-933
pik	-934
pit	-935
ple	-936
por	-937
raf	-938
rah	-939
ren	-940
sai	-941
san	-942
sin	-943
som	-944
son	-945
tal	-946
tar	-947
tex	-948
tog	-949
tok	-950
tor	-951
tua	-952
tum	-953
tun	-954
tuo	-955
tuw	-956
uan	-957
uiv	-958
una	-959
ung	-960
unt	-961
unu	-962
unz	-963
uri	-964
ush	-965
usi	-966
uth	-967
uwa	-968
waj	-969
wak	-970
wal	-971
was	-972
wat	-973
wen	-974
wev	-975
wor	-976
yan	-977
zak	-978
zan	-979
zaz	-980
zen	-981
zun	-982
▁Af	-983
▁Ar	-984
▁Da	-985
▁Hu	-986
▁Ji	-987
▁Ki	-988
▁Le	-989
▁Mw	-990
▁Mz	-991
▁Sa	-992
▁Sh	-993
▁Te	-994
▁To	-995
▁Wa	-996
▁We	-997
▁Wh	-998
▁al	-999
▁an	-1000
▁ar	-1001
▁ba	-1002
▁be	-1003
▁bi	-1004
▁ci	-1005
▁co	-1006
▁ea	-1007
▁el	-1008
▁fr	-1009
▁ha	-1010
▁he	-1011
▁hi	-1012
▁im	-1013
▁ka	-1014
▁ko	-1015
▁la	-1016
▁me	-1017
▁mf	-1018
▁mo	-1019
▁mt	-1020
▁mu	-1021
▁mw	-1022
▁mz	-1023
▁nz	-1024
▁pe	-1025
▁re	-1026
▁sa	-1027
▁sc	-1028
▁se	-1029
▁st	-1030
▁su	-1031
▁te	-1032
▁uf	-1033
▁wh	-1034
▁wi	-1035
▁wo	-1036
▁wr	-1037
▁yo	-1038
Jamb	-1039
Jana	-1040
Mamb	-1041
Osha	-1042
Peop	-1043
Pers	-1044
Shik	-1045
Stud	-1046
aari	-1047
abab	-1048
abar	-1049
aend	-1050
afik	-1051
afya	-1052
aish	-1053
ajua	-1054
alam	-1055
alth	-1056
amoj	-1057
anaf	-1058
anet	-1059
anya	-1060
anza	-1061
aren	-1062
arif	-1063
atua	-1064
basa	-1065
caus	-1066
come	-1067
dakt	-1068
dent	-1069
each	-1070
ende	-1071
fiki	-1072
fini	-1073
hamb	-1074
himu	-1075
iash	-1076
ifun	-1077
ikam	-1078
ikir	-1079
inaf	-1080
ines	-1081
insi	-1082
jamb	-1083
jana	-1084
jini	-1085
jumb	-1086
kini	-1087
laam	-1088
lage	-1089
lear	-1090
lewa	-1091
leza	-1092
mban	-1093
octo	-1094
omew	-1095
onan	-1096
ople	-1097
ount	-1098
outh	-1099
pika	-1100
rien	-1101
robi	-1102
sala	-1103
shar	-1104
sine	-1105
sini	-1106
sito	-1107
sman	-1108
soma	-1109
spit	-1110
tari	-1111
then	-1112
ther	-1113
thin	-1114
tuon	-1115
tuwe	-1116
unua	-1117
unza	-1118
unzi	-1119
urah	-1120
uria	-1121
usha	-1122
watu	-1123
yumb	-1124
zako	-1125
▁Doc	-1126
▁Dod	-1127
▁Eli	-1128
▁Hab	-1129
▁Ham	-1130
▁Jam	-1131
▁Ken	-1132
▁Kij	-1133
▁Mam	-1134
▁Mom	-1135
▁Mwa	-1136
▁Mza	-1137
▁Nai	-1138
▁Par	-1139
▁Per	-1140
▁Pik	-1141
▁Stu	-1142
▁Tan	-1143
▁Tea	-1144
▁Tun	-1145
▁Una	-1146
▁You	-1147
▁ana	-1148
▁bas	-1149
▁bus	-1150
▁cit	-1151
▁doc	-1152
▁eld	-1153
▁fin	-1154
▁fri	-1155
▁had	-1156
▁hel	-1157
▁hiv	-1158
▁hom	-1159
▁hop	-1160
▁hos	-1161
▁how	-1162
▁imp	-1163
▁kam	-1164
▁kib	-1165
▁kon	-1166
▁kue	-1167
▁kuj	-1168
▁kul	-1169
▁kun	-1170
▁kut	-1171
▁kuu	-1172
▁maj	-1173
▁mam	-1174
▁man	-1175
▁mar	-1176
▁mwa	-1177
▁mza	-1178
▁nic	-1179
▁nik	-1180
▁nil	-1181
▁nim	-1182
▁nin	-1183
▁nyw	-1184
▁nzu	-1185
▁off	-1186
▁ofi	-1187
▁pam	-1188
▁par	-1189
▁per	-1190
▁raf	-1191
▁rea	-1192
▁san	-1193
▁sch	-1194
▁sel	-1195
▁shu	-1196
▁sok	-1197
▁stu	-1198
▁tal	-1199
▁tog	-1200
▁tun	-1201
▁uiv	-1202
▁uju	-1203
▁ver	-1204
▁vil	-1205
▁viz	-1206
▁wak	-1207
▁wal	-1208
▁wen	-1209
▁whi	-1210
▁wor	-1211
▁wri	-1212
▁yan	-1213
▁zen	-1214
Chamb	-1215
Mfany	-1216
Mwali	-1217
Mwana	-1218
ababu	-1219
abari	-1220
acher	-1221
aisha	-1222
alaam	-1223
alamu	-1224
andik	-1225
anyab	-1226
anzan	-1227
asoma	-1228
atuwe	-1229
azuri	-1230
binaf	-1231
ecaus	-1232
efany	-1233
furia	-1234
ikamo	-1235
ikuwa	-1236
intan	-1237
jifun	-1238
learn	-1239
najua	-1240
octor	-1241
ortan	-1242
penda	-1243
rusha	-1244
sitoe	-1245
tanet	-1246
umban	-1247
ungue	-1248
ungum	-1249
unguo	-1250
usala	-1251
wajua	-1252
wenda	-1253
zungu	-1254
▁Jamb	-1255
▁Mamb	-1256
▁Mwan	-1257
▁Pers	-1258
▁Shik	-1259
▁Stud	-1260
▁fini	-1261
▁heal	-1262
▁howe	-1263
▁kiji	-1264
▁kuan	-1265
▁kufu	-1266
▁kuto	-1267
▁kutu	-1268
▁kwen	-1269
▁mamb	-1270
▁mark	-1271
▁muhi	-1272
▁offi	-1273
▁ofis	-1274
▁pamo	-1275
▁peop	-1276
▁pers	-1277
▁scho	-1278
▁stud	-1279
▁thin	-1280
▁toge	-1281
▁tuna	-1282
▁tuon	-1283
▁usif	-1284
▁usio	-1285
▁vizu	-1286
▁waka	-1287
▁wast	-1288
Busine	-1289
abiash	-1290
anafun	-1291
ecause	-1292
efanya	-1293
endele	-1294
fanyab	-1295
hikamo	-1296
inessm	-1297
lakini	-1298
ombasa	-1299
ountry	-1300
spital	-1301
ufuria	-1302
▁Chamb	-1303
▁Docto	-1304
▁Mfany	-1305
▁Mwali	-1306
▁Mwana	-1307
▁Nairo	-1308
▁Salam	-1309
▁docto	-1310
▁homew	-1311
▁intan	-1312
▁kijij	-1313
▁kuand	-1314
▁kuele	-1315
▁kufur	-1316
▁kunun	-1317
▁kupat	-1318
▁kusai	-1319
▁mfany	-1320
▁mwali	-1321
▁mwana	-1322
▁nyumb	-1323
▁sokon	-1324
▁taari	-1325
▁tunas	-1326
▁ujumb	-1327
▁usala	-1328
▁villa	-1329
anzania	-1330
binafsi	-1331
daktari	-1332
endeleo	-1333
jifunza	-1334
mefanya	-1335
mportan	-1336
teacher	-1337
▁	-1338
a	-1339
n	-1340
i	-1341
e	-1342
u	-1343
o	-1344
t	-1345
k	-1346
m	-1347
w	-1348
s	-1349
r	-1350
y	-1351
l	-1352
h	-1353
.	-1354
"	-1355
z	-1356
f	-1357
b	-1358
d	-1359
p	-1360
c	-1361
j	-1362
I	-1363
:	-1364
g	-1365
,	-1366
T	-1367
x	-1368
{	-1369
}	-1370
v	-1371
M	-1372
D	-1373
?	-1374
S	-1375
J	-1376
W	-1377
H	-1378
U	-1379
!	-1380
L	-1381
P	-1382
K	-1383
A	-1384
E	-1385
N	-1386
F	-1387
Y	-1388
B	-1389
R	-1390
1	-1391
2	-1392
3	-1393
4	-1394
C	-1395
O	-1396
